3D7E3B95
BD9FE473
3D8F5785
BE2112DC
3BD96811
BB87677D
3D27E150
BD5514DD
BDC757F5
BD4E219C
3E055C3E
BE060F73
BDA5A47E
3D6B2EA2
3DED4B74
3E47CFF6
3DF63EB9
BC6A4E9E
3C7F8201
3D4DA19C
BDCCD19A
3DA70AE8
3DB13162
3E446989
BD8C1118
BCB2C169
3DAAB7BC
3DC484BD
BE06090C
BE465FF3
3DE77E9C
BE3BECAB
3D1FA140
BDD051A0
3CB90E3F
3BC767F4
BD2807B6
BE02029E
3D6F21DF
3DB16496
BD9FCAD9
3E411FE9
3E0905DF
BD34149A
3DA7D7B5
BE196600
3D309495
3CA0DADC
3DA3BE14
3E25794B
BD28FAEB
3E081F77
3D4214B8
BE462FF3
BD4CD4CD
BE1FEC73
3CC574BF
BD54AE76
BE0F6C52
3DF8CB8B
BE2F3FC5
BE29AFBA
BDF84525
3E232C7A
3CA127A8
BB916786
BD4AC7FD
BE23DFAE
BC98A797
BD9CE46D
BD496193
BE1A8F9C
3E366FD3
3DEF2B78
BCD75B46
3CD65B46
BE442988
3E3C8979
BE0B6F7D
BD7761EF
3DCBB7FE
3DB457CF
3E0805DD
BE01D29D
3DA2A478
BE37696F
3E49365F
BE40531A
BE0B1C49
3E4A8FFC
3D90B788
BE3CBFE0
BDD3D1A8
3D6421C8
BE0C1F7F
3E2792E9
BCC85B28
3E146929
BA2E6787
BE09DF7A
3DE61E99
BE4B4997
3DF2F84C
BDA97153
BE17992F
BDE6EB67
BCA4747F
BDD23E71
3DC5B7F1
3DAF4493
BDB2BE32
BDEDDEA9
3D8D244C
3D23C7AE
3E1BD938
BDE9D1D4
BE1622C6
3CBDDB17
3E47BCC3
BCE08E90
BD4794C2
BE341302
BDAFA492
3DB8B171
BDE37E94
BD72C84C
BCF8F524
BD44E189
3DEC7EA6
3E28FC85
3D55C813
BC178131
3CE5A830
3D4A6E63
3DCBF198
3E2482E3
BD1D07A0
BD73951B
BE386971
BCCD5B32
BC95F45E
BE0692A7
3D7DBB95
3E2CC2F3
3DED6B74
3E381970
3E2CBFC0
3E312962
3D83643A
BA5E67D5
3D55D4DE
3E40B64E
BE35C638
BE41231C
BD95B792
3D34949D
3D764854
BE1C9939
3D1FD474
3D0C611A
3DAFD160
3E25E2E5
3E04CC3D
BDB3F168
BE21D610
3DC637F3
3E2D0627
3D14145A
3E26EC81
BE48065D
3DCA17FB
3D54480E
3E0C25E5
BD85F10C
3DF82523
BDD104D5
BE47065B
3E2122DC
3D92D78D
3DFEEB97
BE1FB93F
BE36196C
BE40831B
BDB8F7D7
3D563B46
BE2CBFC0
BC907452
3E27FC83
BDC8F7F8
BE38563D
BE19C934
3DDDAB56
