3E2EA95D
3E049F70
BC25814F
BDB22497
3DD784E2
BE0EAC51
3E0EEC51
3E40B64E
BD4FC807
3DC2F186
BD293AED
3DDDF1BC
3D94778E
BCE0C1C2
BE265FB3
3E26CC81
3E1012BA
BDB81E3C
BDE54B64
3DF0A514
BD184797
3D596E81
BE1375F4
3E337967
BE16D2C7
BE209C74
3DBC37DF
BD9B579D
3E12CF8C
BC00B430
BDA817B7
BE1085EE
3DBA5E43
BD52080B
BD928458
3D83DDD4
BE464326
3E152C5E
3E259618
3D4794C2
BE185C64
3DEBB1D7
BDF5F1ED
BDB34AFF
3E0BCC4B
3E22CC79
3DC41188
3D2D6E28
BD1ED471
3D80E435
3E3A7975
BDAA57BC
3CE45B64
3E0F92B9
3DD364DA
3C2DE7C5
BE01CC37
3DBFFE4D
3B89CDDF
3E3E864A
BD477B29
3E3C3312
BDD36B40
3E228945
BE469FF4
3E40CCB5
BCB05AFC
BE337C9A
BCE92838
BE1FDFA6
BD9D646E
BE26BC81
BE26D2E7
BE148F90
3DA38AE0
BE38E63F
BDAF4AF8
BD2CEE28
3DF18B7C
BE4A1CC7
BD61D4F7
BD92F78C
3D643B61
BE004F67
3DAC1159
3C9EC13C
3C274E18
3CECC1DA
BE4BDFFE
BDA94AEC
3BB5016A
BA973465
3E0502A4
BDC7718E
3E358305
BE074C42
BDB417CF
3DD5A4DF
BDB737D5
3D24147A
3D839107
BD85643E
BE1A6C68
3E2452E2
3DE6C501
BBEF01D6
3DE86B6B
BCE3A831
BE2EFFC4
3DF6AB87
BE0B7917
3DC7C4C3
BE45E325
BDC0A4B4
BD53FB42
3E05FF72
BE3EEFE4
3DE96506
3E2F22F8
3CFC752C
BD22FADF
3E0AF916
3DF4E51C
3E4BF331
BDA22ADF
BD65FB67
BDE5D1CC
BE2A1FBB
3D3007C5
3D25EE19
3D062DDA
3E134F8D
BC6C81D4
BDE9FEA1
BDC75E5B
3C55E814
BDA15E10
BDD924E5
3D96112C
BDCA84C8
BD7161E2
BDE9A506
3CF9DB8E
BD017A9C
BDCDBE68
BDEEC511
3D15BAC5
BE3FF319
3E0B95E4
3E0A02AE
BDA997BA
BE48265D
3DE7CB69
BE1145EF
3DDC64EC
BE416650
BE49732C
BC20813F
3DC12B1D
3DBBF7DE
3D8FAAB9
BE3022FA
BC17B467
3E20E942
3D97C463
3D513B3C
BC84A76F
BCBDA7E1
BD678835
3C40B4B1
3E41C31D
3DFE0B97
BD5414DB
3E390CA5
3D57E1B1
3D342168
3C5A81B6
3D11BABE
BE28F952
BE2972EC
3C1DB471
BDF56B85
3DF131E3
BD980463
BE1012BA
3DA6B7B4
BE06D2A7
3D3DEE48
BDD91E7F
BE409FE8
BE4C9000
BE0B1F7D
3DD1E4D7
BC6E81DE
BD04C770
BDE49E96
BDC0B181
3D957DF8
BD8E711C
BE36FCA1
BDD17809
BDE84B6A
3CEBDB70
3E15DF92
BC64B501
3C997466
3DD211A4
3E1002BA
3E340635
3CCB74C8
3E481990
3DCAD7FC
3CE7F501
3D136126
BCA9A7B9
3E217610
BE28561D
3DB7DE3C
BE25E619
BDC4A4BC
BD587B4C
3D887777
BD5B3B50
BD1F9473
3DB0DE2F
3DF3B1E8
BDEDC510
3E08CC45
BDD7F1B0
3DA5FE19
BDA837B7
3DD3A4DA
3E0F12B8
3E15FC5F
3DC697F5
3D799525
BE30AFC8
3DCFD806
BDE1BE90
3D7E9531
BE177F95
BE4BB331
3DDB781D
BDD55E78
3CCA74C9
3E33C634
BE1DE609
BE18A2CB
3DEED1DE
BE146F8F
3E42E31F
3E2EB62A
3E1E2609
BDCD8B35
BE41164F
BCA3C146
BE470328
3DFA71F5
3E4A8FFC
BDFD71FB
3DBAAB0F
BDDC7E86
3D711516
3E2B6957
3D807101
3DDAFE84
BE27B2E9
3E17B2C9
3DA9D7BA
3C92C128
BE0DD5E8
B9200091
BD6254F7
3AE26840
BDD2B80B
BDC877F6
BE06890D
BD24FAE4
BA973465
BD665501
BE3E2649
3D156DF9
3D15A12A
BE37F309
BD60FB5B
3E1312C0
BE417983
BDC044B4
3DA777B5
3E34BC9D
BDC2C4B9
BDE6AB67
3E3CA646
BE410FE9
3B72CEBF
3E14E2C3
3DC7AB29
3E2F22F8
3CD9C1B3
3D9B579D
BE4C6666
BE1F3C72
3B1C67AA
3E07B2A9
BBC49B25
BD45FB27
3CF2A84E
3E3B1310
BE07CC43
BD816436
BE11F5F1
3E25B2E5
BDF96B8C
BC9CC13C
BE32D2FF
3C73B519
BC6981CF
3DF34B80
BDCF5805
3DE53E97
BCD874E7
BD4BAE64
3E0D991B
BD98B132
BDCD0B33
BE2D8FC2
3E0F95EC
3E208C74
3DE5FE99
BE2ED62A
BC6DE846
3DCBA4C9
3D85C440
3E14AF90
BE295C86
BE31AFCA
3E35BC9F
3D81AA9D
BDBF7180
3E42531E
BD0BFAB2
BD6AAEA2
BCB2A7CD
BE3A1641
BDD651AD
3DFAD1F6
3E127F8B
3DD3780D
3E38FFD8
3D06ADDA
BD0D944D
3E214943
BCB874A6
3E4C9000
3E2C9959
BD82176B
BE4B1663
3CEE0EA6
BBCF019B
BDBB6B10
BE3F9CB2
3D746EB5
BD037AA1
BE0D8F82
3A280166
BCE9A83A
3C924126
3D11A122
3DE1DE91
BE275FB5
BE07FF76
BD171461
3E15C5F8
BDCB5E64
3D61AE91
BE3E9FE4
3DB8CB0A
BC8AC114
3DE81E9D
3CB5416B
3D927125
3E39730C
BE2452E2
BC1D813A
3CE02829
BD009435
BE48E32B
3D5CFB53
3DB9C4A8
3E326965
BE3142FC
BDD724E1
BD6B550B
3E02D906
BD09E115
BBDE9B56
BD07EDDD
3D7F2ECA
BD4FD4D2
3DCEE4D1
3D3894A4
BE109921
BC3CE7DD
3E0515D7
3CE98E9F
BE369FD4
3DF5251C
BE273C82
3DFFB1FF
3E3012FA
3E4A2CC8
BDD5D1AC
3D198799
3E15A92B
3DB20AFE
BD5EA1BC
BDD7DE7D
3E407FE7
3E42431E
3E4BA331
BE47265B
3DF6EB87
BE23B2E1
3E4ADCC9
BDF1A516
BC5B1B4F
3DE2D82C
3DE4A4FC
BD1C946B
3D34C7D0
3E2772E8
3E1B5937
3D936AC0
BE47BCC3
3DAD848D
BDC27184
3D8F311E
BE48CCC5
3E106C54
BD19A134
BDCF6B38
BC6781CF
3E46BCC1
3D10ADED
3DC33186
BAE59B50
3C35B4A3
BD5DD4F0
BC434E54
3D9CB7A0
BE434653
3DA337AD
3CB5F49E
BE425FEB
3E2F562B
3DB2F166
3D4AFB31
BDFC7EC7
BE067C40
3CB7A7D7
3CAC0E26
3CFD752B
BD89A446
BDC4C4BD
3DF2F84C
3D19479A
3DDCCB54
BDDFF825
BD0E2DE8
3D086DDD
3CD241A6
BE15092A
BD5161A2
BE437320
3D21BADE
3E0FC5EC
BDCE8B37
BDD6CB47
3D58AE7D
BDCAB195
3E1DE609
BD743B81
3DAA6AED
BBF69B7D
BE15292A
3D94D790
3DC37187
3CA15ADE
BDCADE63
BD975DFC
3D386E3E
3DF291E4
BE3AF976
BE340C9B
3D88B778
BE0DDC4F
BD4C14CC
3BC7CE60
3E169C60
3D9CA46B
BE1CB939
BC89DAAF
3C908DED
BD168794
BE19C934
BDB12496
BE453CBE
3DC7918F
BD72BB7F
3DA7E483
3E435FED
3DDEC4F1
3D9D5E08
BCDB74EB
3E2D9FC2
3CA97488
3D5914E4
BE331300
3CD141A1
3D21D476
BD908455
3E19E2CD
BC90F454
3E385FD7
BE0DD91C
3DE711CE
3DE684FF
3DECDEA7
BCFBDB93
BE1B42D0
3CF0A849
BE240948
BDEC11D8
3C6B1B6C
BDCFEB39
BD95645E
BE3EECB1
3D6EAEAA
3DDF5825
BC9EF472
BD4FD4D2
3DBB7177
BD72FB80
3D5DA1BC
3D9E77A3
BE1345F3
3E27D950
3D10ADED
BE45E659
3D93B78E
BDB47E36
3E37063B
3D86BDDA
3D563B46
BD21BADE
3E335967
BDCA7E62
3D963793
BD38D4A5
BD6014F3
3C830DD1
BC311B00
3DF3DEB5
BD5FBB5A
BDE991D3
3E336634
3E3FBFE6
3E2FAFC6
BDE21E91
BDE0E4F5
3DBED17E
3D52C80C
3DBB3E43
BD6561CC
BD34549B
3C1DB471
BDAEAAF7
BD2C548D
BDCE04CF
3DC25185
BD6F0843
BDC0FE50
3D2CE15A
3D68BB6B
3DA04ADA
BE358FD2
BB3D34A9
BE1052BA
3DF98526
3E2DC2F5
BE3C8979
BE3BB644
3E2C12F2
BD72084B
3DF1B849
3E14E92A
3DC377EC
BE4B3CCA
3E0FD920
BDB86B0A
BD0F9452
3E12FF8C
BE1DB608
BD273AE8
3E2F862C
3E169F94
3CE22829
BE289951
BC71E845
3E09D5E0
3E16292C
3D39BB0D
3DF86B89
3DD85817
BE21F944
3DA53E17
BCE041BF
BD77EEBC
BE1C9939
BCCF2806
BD5B081C
3E1D0607
BE143C5C
3E3C1645
BD73AEB4
BDC5BE58
BE09A913
BCA65AE8
BB929AB7
BDAA97BC
3E1BD938
BD69D506
3E2812EA
BE23B614
BC0FB453
BD7461EA
3CFD5B96
3DC4AB23
BDED9841
3E372FD5
3DFB91F7
3E04FC3D
BE3EC317
BDA35E14
3D3F94B3
BD7AA1F5
BE017C36
BE1EF2D7
BC00B430
BD026106
BE49D32D
BE171C61
3D122125
BE0C0C4B
3E2E3629
BDE66500
BDE95E9F
BD129457
3E0DE91C
BCC94192
BDC077E8
3D013A9B
3E1DAC6F
BE10C5EE
3D496193
BDE2E4F9
3DB89E3E
3C9C5AD5
BD502E6E
3D96912D
BC12E78E
3D9A1E01
BA9400FE
BCCDF4D0
BD5C2E84
BD73A1E6
BE12D2BF
BD243AE3
BE2642E6
3E062C40
BE3ACFDC
3E25B618
BDD7EB49
BE42731E
BDE70501
3CD3F4DA
BB9D679A
3E20CFA8
BBA9CE1A
3DC8F192
BE182930
3D422E50
3E3CAFE0
3E13DF8E
3C731B81
3D063AA7
BE38C972
BDE64B66
BE225FAB
3BE69B6A
BE20EC75
3D4BEE66
BD43EE54
3E168F94
BD9F37A5
BC408185
3E0265D2
3DEAF83C
3E01FF6A
3C344E31
3E300C93
3DDEF824
3E2B2C8A
BE0E65EA
BDE2382A
BD4007E5
BE27594F
BE1445F5
3DD22B3E
BE440988
3DC15E50
3E2B8FBE
3D64FB65
BDD13E6E
3CCD419D
BD7121E1
BD704847
3CE9C1D5
BDB39E34
3DF4AB83
BDF30519
BDC5FE5A
3D877DDC
3DA90AEC
3DDDD1BC
BE48732A
3D2147A9
BCC327EE
3D9EE470
BE250C7D
BE03C908
3CB1A7C8
3D5394DB
3E0A7915
BB58680C
BDD9FE81
3DBE1E49
3E3282FF
BE12B5F2
BE16D92E
3B079A94
3D3BFB13
BE199933
BD9EF7A3
BD6FEEAD
BE3BECAB
BE0E9C50
BBA29AE0
3D9EBE0A
3E49532C
BE4AD662
BD316E2F
3E3C0312
BDD7F817
BE41BFEA
BDA9FE21
BD7E8864
3D3647D3
BD86F774
3D04543B
3D61AE91
BDD4580F
3E102920
3C141ABF
3E423651
3E1E3FA3
3DCB9E64
3E336C9A
3E16692D
3E1DCC6F
BD2B6E25
BE455657
BD72D51A
3D7721ED
BD129457
BE4CBCCD
3D0EADEB
BDF491E9
3E2502E4
3E2AFFBC
3DD6DE7C
3D99E466
39E99B65
BE10E2BB
3D737B80
BD38FB0B
BDC09E4E
3E3E5649
3D687B6C
BE16B5FA
BE304FC7
3E0D12B4
3D63482C
3D6E7B76
3CC40E58
3D9F113F
3D144790
3DCA37FB
BDC05181
3DDF1825
BE2C5959
3E242948
3E41464F
BB93CDFE
3DD36B40
BE2D62F4
3E357304
3E007F67
BE4C4FFF
BD38C7D8
BE2A6C88
3BAE3486
3D2E548F
BC261AE7
3D6AEEA4
3E2FDC93
3E2162DC
BE1DE2D5
3C964130
3C19B467
BE39F30D
BE4AF663
3E37BFD6
3E251C7D
BE40ACB5
BDEF9EAC
BE1CD606
3CA0F477
3E37696F
BDE6DE9A
BDEB850B
3E3DA97B
BE0A82AF
BE1B4F9D
BE2A0621
BC99C132
BE40C31B
3DFC785E
3D884AAA
BDB6316C
3D24BAE3
3DBBB177
BE356304
BD5DD4F0
BE1CA606
BE1592C5
3E238614
BD8E1DE9
3D83AAA1
BDAAD156
BE1765FC
3E47ECC3
3DE8F838
3D52C80C
3DAEC491
BE108921
BBAA9AF4
BDAAAAEF
BCDC5B50
3DEAA507
BD66D501
BE311962
BD6E0841
BC927457
BDCAB7FB
BE0E4C50
BE3B9CAA
BE3C6CAC
BD97912E
3DBC3178
BE1C3938
3D67FB6A
3DBF4B18
3E05BC3F
BDB5916B
3DE544FE
BE402CB4
BD02EDD4
BD8B644A
3D6921D2
BDC624C0
BDC4FE57
BD508808
3D1E47A4
3E2F495F
BD4F61A0
3DA297AC
3D981DFD
BE40131A
3DBDE4B0
3B7601FA
BD905121
3E453CBE
BE3FF980
BE384FD7
3E291FB9
3E082C44
BE2F4FC5
BDD1A4D6
3D1EAE0B
3D307AFA
3D9F77A5
BCE141C4
3E1942CC
BE27094E
3DCABE62
BDA63E19
BDAF3E2A
3E2E1FC3
BE37F309
3D13FAC1
3E23C948
BD83A43A
3E06BF74
3DB4F7D0
3DFA8B8F
BD31BAFE
3CFAA85D
3E082F77
BD7B485E
BE42331E
3E0752A8
BCB927DA
BDA59E19
3E0155CF
3E00A29B
BDCC84CB
3DB2EAFF
3DB99E40
BCF9F529
BE008901
3D9B846A
3DC81E5D
3C238144
BD8B8AB1
3D853771
3DAE2AF6
BE40F31B
3DD23E71
3D5394DB
BDE2F82C
3DB157C9
3E2FE62D
3E0BBF7E
3E244949
BDB5316B
3DB17163
BDAAFE23
3E31A2FD
3C90DAB9
3D6161C2
3D90AABB
BE0365D4
BD67A1D0
BCF4F51F
BE32BFCC
3DA8FE1F
BE282C84
3A0E678C
3E41CFEA
BE225FAB
BDE471C9
BC8D2780
BE224611
BD1B7AD0
BE481FF7
BE165C60
BD0EADEB
3E42431E
3D909788
BD2D948E
3DE024F4
BDFD5EC8
BE2E2FC3
BDFE3EC9
3E2ED95E
BDB0F7C9
BD6A7B6F
3E4AE996
3E373308
BE0C9C4C
3CA9A7B9
BDDD71BB
3E349FD0
3C8B7448
3CB95B0B
3DC377EC
BDF9BEC0
BD81F76B
B8A668B5
3E353637
BA9267A1
BC1D813A
3E36E63B
3DC37187
3E0C4C4C
BE1DF609
3E296620
3DCFFE6D
BDCCEB33
3D24C7B0
BE096C46
BE3C5645
3E250617
3E33A301
3DCED803
3DFBC52B
BD85F772
BE0635D9
BDB46B03
BDAEF15E
3E1E6C70
3B2ECE34
3E0C85E6
BD949790
BE1A12CE
3B929AB7
BE165F93
3DD5F812
BBC234AE
BDCA6B2E
3D7FFB9B
BD9E5E0A
3E06E90E
3DA3C47B
3CA627B2
3DFBBEC4
BE183F97
BDD50B44
3E3C4645
3DA31E14
BE45DFF2
3D820437
BCD174D8
3D43FB22
BD04A10A
BD029437
BD7DD530
3DFFF866
3E3FBCB3
3D1A879B
3DBEA4AF
BD0ED451
BCBF417F
BDB9B7DA
3D562E78
BDEF6B78
3E2F5FC5
3E04BF70
BDC064B5
3E3E4316
3E36596D
3E01BC37
BE140C5B
3E2C7C8C
BDDF7826
3E42B31F
BC988DFC
3C584E80
BD1FFADA
3E4A2994
3E0E02B6
BE308C94
BDB7316E
3CC327EE
3E251C7D
BE0F1C51
3E356FD1
BCD9C1B3
BD086110
3E06AF74
BCC8C190
3E2CB626
3E177C62
BDAB0488
BE0A4C48
3D13C78D
BE256FB1
3DF12515
3DE1B1C2
3CD1DB3F
3D232145
3E2972EC
3DFA2B8E
BDCAF196
BAF401F0
3DA8FE1F
3D88DDE0
3E0DB5E8
3C8D411C
3E1B5C6A
BD8FB11F
BCE374FA
BDD49810
3CBCA7E1
BD9C4AD2
BE352637
BCB08E2D
3DC8E4C5
BD983DFD
3D4414BA
39533445
BE2E862A
BE2A5C88
3E17892F
BD987DFE
3E310C95
3E025C38
BCD62815
BD35216A
3CE35B5F
3DFAE529
BE0C45E5
BDCBEB32
BDBE517C
3BC1017D
3D492E5F
BDD1BE70
BE046F6F
3E0CE91A
BDF65EB9
BE0455D5
3E25494B
3DE031C0
BCA327AD
3DE1BE90
BC9AF468
BE1D9C6E
BDCB7197
BD0BEDE5
3D33149A
3D153AC5
BC6D4EA2
BE24A949
BD66D501
3E3BD644
BA1B3479
BE0CBC4D
BCC4A7F0
BD282E1C
3D513B3C
3D54480E
3D40A180
3E1B7C6A
BD4CFB33
3DF8A524
3DE4B82F
3DC564BE
3E094F79
3E17BF96
BCC35B1F
BE066C40
BDBF5E4D
BE02C29F
3DD264D8
3E0E22B6
3DF1F84B
BE363639
3D5ED4F2
BD0EC784
3D08C777
3D4F61A0
BE3B7644
BE38030A
BDA82483
3D933DF3
BE28361D
3E095F79
BDED2B74
3E3B7FDD
BE47A98F
BE2132DC
3E08DF78
3E258C7E
3D403B19
3CF05B78
BD8B3116
BD9C379E
BDA83E1D
BD5414DB
3D65E1CC
3E070F75
BDF64B86
3DE7F1D0
3D487B2C
3E0F191E
3D96D12F
3E13C2C1
BE37363B
3D77EEBC
3D07ADDC
3D6461CA
3E0ADC49
BD56AE7B
BCCC0E66
BDFEB1FD
BDB00492
3D977795
BDC1CB1D
BDF07847
3DCEF804
3DCA4B2E
3E34E96A
BD53480C
3CCCDB35
BDBCC4AC
3E0BA5E4
BE015C36
BBFA3525
BDAC4AF2
3DD044D4
3B6601D2
3D593B4D
3C945AC0
3DCC2B32
3C3F4E4A
BE00AF68
3E36B96D
BE42FFEC
BD761520
3D7A21F5
BE21DFAA
BD61C829
3E38ACA5
BE1032BA
BD282E1C
BDB22AFE
3DB4C49E
BC9F8E0A
3C0C8118
BC2AE7C0
BDB22AFE
BDE90B6C
BE43E321
3D38E173
3E096C46
BE092F79
3DCD9E68
BE0D9C4E
3DBA57DB
3D5314D8
3DC03E4D
BDFC6B92
BC061AA1
BDCC9E67
BD14545B
3E445CBC
3E44A656
BDE5FE99
3DA6714D
BDEEA510
BE31062F
3E174F95
3E2E2629
3D607B5B
BDE3BE94
3E461FF3
3E32A2FF
BE0C4F7F
3D012102
3D7B61F6
3CD874E7
3E26BC81
3E49EFFA
BE3F1318
3DCBD7FF
3B0A0120
BD60E1C2
3E0A6F7B
BD812A9C
BE45C658
3E332300
3E2BAFBE
BE229C78
3DC0BE4E
3E055C3E
3DE17E90
3DE82B6B
BD500806
BCF6DB89
BD8C3117
3E03B2A1
3DD8B818
3E47998F
3E036C3A
3D147AC4
3D863773
BE39D974
BE09E5E1
3D922458
3DC24B1E
3E2A3FBB
3D1C2139
BE0985E0
BD80B101
3E47198E
3E46898D
BD5FD4F2
BDFC51FA
BE3E9CB0
3D4614BF
BE4A4661
BBDE34EA
BDBF2B18
3E0B9F7E
BD91B123
3D2D6E28
BD9CF7A0
BD887DDE
3E4B8CCA
BE49EFFA
3E17C2C9
BC684E9E
BC3F4E4A
BD9A8ACF
BDA46AE2
BC4D819E
3C9DF46D
BDA99154
3DC157E9
3E0E75EA
3DEA4B6E
3DED7EA7
BE230946
3E04EF70
3D5561AC
BE0D3C4E
3D52D4D9
BDFD3EC6
3DDCCB54
BD834AA0
BE0EA5EA
BD2807B6
3D8E8450
BDF68520
3E1E893D
BDDFDE8D
3DEC3EA5
BE1C2605
3E2732E8
3E216C76
BD781522
3CAA7488
BE3AD976
3E2C12F2
BDAC77BF
3CCD74CE
BD0D4781
3D41C7E9
BDEA8508
3E3FF980
BD91AABD
3C88A779
3E1F92D9
BE03FC3B
3DBA57DB
3DBE7E49
BDCF5805
BD9A6ACF
BE4A1FFB
BE1CA2D3
BD831106
3DAB3E23
BDDA7E82
3E21BFAA
BDD03807
BD198799
3D9AC46A
BDCA1E62
BD5A7B4E
3D95F792
3E04AF70
BDBBEB11
BE217FA9
BDBA6B0E
BD347B04
BD88EAAB
BD3CEE48
BD8E8AB8
3E3C2CAC
3E2B8C8A
3E41331C
3DBB44AA
3CB2C169
BE26861A
BE288FB8
3E1212BE
3D2487AF
3CB20E30
BDBFAB19
BD4FEE6D
3E2DB95B
3CF35B82
3E2A92EF
BE0DAC4F
BE45B658
3D96F795
3D14945C
3E33F635
BDB317CD
BCC20E52
BD3307CD
3DF6D854
BC2E815D
BE1BAF9E
3AE8CEB6
BE41F984
BE2F362B
3D96D794
BD895113
3A74CEF4
3DE84B6A
3E14CC5D
BE04FC3D
BDF22518
3E2482E3
3D9FEADA
3E38ACA5
3E19F934
3DCB24CA
BD56E1AE
3E2722E8
BB039AAA
3E25B618
3DAF315E
3DFD31FA
3D497B2E
BC80F437
BE02E5D3
3C97412F
BDDFD826
3E49ACC7
3D7B085C
3D859DD8
BE30262D
BB379B0C
3E355FD1
3DCC719A
BDBFC4B3
3E420651
BDA4D7B1
BE0435D5
BE2952EC
3E394FD9
3DEC250B
BE10B5EE
3D4707F4
3CA5F481
3E1CCC6D
3BB167C2
BD4647F3
BD09BAAC
BE246616
BD61D4F7
BCF28EB3
BDFE1ECA
BE3F2CB2
3DF34519
BE0C5919
3DC39E54
3D687B6C
3E2B7C8A
BDAB6AF0
3E16E92E
BE2482E3
BC93745C
BE035F6D
3DC2F7ED
BE2A8955
BE46CCC1
BE3DD97C
3DA01E0D
3E0D8F82
BCDCC1B7
BE0832AA
3DCD8B35
3E194933
BE0475D6
3DF4D1E9
BD176130
3C6B4EA3
BDB277CB
3D28AE1F
BE308FC8
3B850106
3DEA91D6
3B606835
3DC517F1
BD4FFB3B
BE1865FE
3E20DFA8
BDD00B3A
BE06CC41
BBDA9B57
3DCA8B2E
3D8F5DEC
BD8D1781
3B2867BE
3E29361F
BDB25165
3DBD0B15
BCBDDB17
3E43A987
3CBCC17C
BD85910A
BE2BB2F1
3E2F02F8
3D95AAC5
BE1145EF
3C20B476
BE0F9C52
BE24F2E3
3E1AC936
BDDC51B9
3E1B12D0
BD33AE33
BDEACB6F
BD9DE46F
3D92B125
BDD804E3
3E2B0956
3BF301EB
BE34DFD0
3D1C613A
3DAEF7C4
3E464326
3DFAA528
3E224945
BDD7BE7C
BE421CB7
BE0FB5EC
BD05143C
3E2A72EE
BE1245F1
BD916456
3D222145
BE17EF96
3CEE2842
3D68C838
BC43818A
BC47E7F6
BD052DD7
3D933126
3E3DBCAF
BC1DB471
3DF88B8B
3D55BB46
BDB27166
3D84EAA3
BE446CBC
BC551B45
BE2E02F6
BDFA0527
BE0DAF82
3E438987
3D42A185
BE345C9C
BE1622C6
BDBC17E0
3DC06B1A
BE3292FF
3D9CE46D
3E1302C0
3D821104
3BCA34C2
BDF83EBC
3E2302E0
3CFCA862
3E2CD626
3E0652A6
3D94F790
BE367CA0
3CBF5B1A
BE35C638
3E48BCC5
BE311C95
BDD444DB
3E28561D
BD49C7FB
3E15A92B
BE0D92B5
3E48BCC5
3E4BD331
BD4E219C
BE2D6628
3D9A8468
BE319FCA
BD5A94E7
3E0C62B2
3D392E3F
3C7781ED
BE1EA2D7
BD2FC7C6
3D74084D
BE20C60E
3DBE84B0
BDCE519D
3D7A6EC1
BE19BF9A
3E3FD64C
3DD45E75
BDD924E5
3B850106
3D1CA139
3E3F797F
3D287AEB
BDB89E3E
BDFCBEC6
BCEDF511
3E31F631
3DBC5179
BC064DD8
3E079C42
BDCD919B
3E47765C
3E40164D
3DE4582F
BDD0F1A2
3E098F7A
BE2082DB
3C834108
BE2EFC91
3D223ADE
3D8B5117
BE0FB2B9
3BAF0160
BE36BCA1
3D11FABF
3D917DF0
3C36E7D3
BE45D98C
3E3F997F
BE412FE9
3D775521
3D970AC8
BC36B49D
BE258FB2
BDFB785D
BD927125
3E090F79
3D5B54EB
3DB6DE3B
BD2B9489
3D95D791
3D916456
3DF51852
3DCA37FB
BD0CFAB5
3E1395F4
BD0BEDE5
3E1FC940
BD8A0AAE
BC32E7C9
BE16D5FA
BE3CE313
3DD9F81A
3D29E155
BD578814
3E389FD8
BD2A3AEF
BDED050D
3DFC785E
BE01C904
BB8E344B
BC810DCC
BD20D474
3E11AC57
BDB2FE33
BE00729A
3E302FC7
3B969ACC
BDE91839
3DF7BEBD
3D1C2E06
BE0612A6
BDCA9E61
3C12E78E
3D35A16A
BE022904
3E459658
BDE1BE90
BDC657F3
3E2EF2F7
3DC7718E
3DFA385B
BD48BB2A
BE3E2316
BC0C4DE1
BD5494DD
3DDA91B5
BE119C56
3C835A9E
BE249949
BCA88E1E
3E0522A4
BE092C46
BE1732C8
BDB257CA
3DDC3E85
3E0B3916
BD8E9784
3E1E293C
3E035907
BDBB57DD
BDE63E99
BD84F76F
3E3A8642
BE012C36
BE3D0647
3D4A07F9
3DEF31DE
3D882442
BE1C7939
BDA0A474
3DC37E55
BDBCD17A
3C997466
BD5AD4E8
BD6214F6
3D2AE155
BD18EE00
3DBC1177
BE2DEFC2
3D4EE19D
BCD6A813
BD50C807
3DC33186
BD7AC85B
BC8A277C
3CB6C16D
BDC27E52
BE022F6B
BCB4F49F
BE231C79
3E023904
3D81976A
3BAB67B8
BDF0F1E1
3DBCBE46
3D9E8470
3DC664C0
3DC844C4
3D8A177B
BE04B2A3
BE16EF94
3CA527B2
BDED71DB
BE36B307
3CA127A8
3D4AAE62
BD3EE17D
3D81DDD1
BE46E98E
3DCA3195
BDB677D2
BC0C4DE1
BE0C1C4B
BC33B498
BD99CACD
BE21EC77
BDF2784B
3E3A230E
BDBD117A
3CCB5B33
BD95D12C
3D0DFAB5
3D880AAA
3DCD7802
3D819DCF
3E2DCC8F
3D00C768
BDEB8B71
3E4A1FFB
3E0FCF86
BA34CE53
3E34CFD0
BDF64520
BC6C4EA8
BD92AABE
BC838DD4
3B5ECE82
3D6AA1D5
BE343FCF
3E19C934
3E0ABF7C
3DE3182E
BD4814C2
BE138C5A
BE381FD7
3D33BB00
3C45E7F6
BDDF7826
BC201ADD
3D92D126
3E00FC35
BC9D7470
3CC78E5A
BD944AC1
BE1AF603
3D69D506
3E41231C
3D987132
3D8EF11E
BD2E148E
3E4B3FFD
3DEC71D9
3CC874C4
BE1F8C72
3D232E13
3E448CBC
BE11D2BD
BE308961
3E3E4FE3
3E1EC2D7
3E36396C
BDEF4B77
3E1702C8
BDCE3803
BE246616
3E181C63
3DC2DE53
3D3A47DA
3E401980
BDE3B1C7
3DB63E39
BD2447B0
BE44CFF0
3C8CC119
3D61AE91
BDD044D4
3C664E9E
BE10F2BB
BE1E2FA3
BE0E1F83
BDAEF7C4
BE207FA7
3DF42B82
BD52FB3F
3DBD37E1
3CA48E14
3E39FCA7
3A619B3B
3E0DBF82
3D95045D
BDA2F7AC
3DEC250B
BE00DC35
BD8D4AB4
BCCE5B38
BE35C305
BDC8EB2B
BE0DEF82
3D9B446A
BDB19E30
3DF51EB7
BD971795
3DC344BA
BDC91E5F
BE25394A
3DC8C4C5
3E10A5EE
BDB1E497
3E0F95EC
3DEF4B77
BE2802EA
BC90DAB9
3DE2782A
BCB35B01
BDABC48B
BD416E4F
BC221ADD
3E0DD5E8
BDDE9824
3E25594B
3D99B133
BD953791
3DC8D7F8
3DC8FE5E
3C141ABF
3D4C6198
BDE52B64
3CD8C1B3
3DD104D5
3D97B12F
BDE66B65
BD3B94A9
3DE9C507
BC9AC137
3D83B76E
3E0FA2B9
BD6FBB7A
BE00429A
BD6BAEA5
BD97D130
3D2D2E26
3E074F75
BDCE919D
BDFAE529
3D246E16
3DAEE491
BDEF0B78
3CED5B73
3E118923
BDA15144
3DBDCB14
3C29E7BB
BE436CBA
BDE98B6C
BD586E7E
BE187931
BDAB2489
BDEEB1DC
BDD61E79
3D36FB09
3D27EE1E
BD3DD4AF
BBE634FE
3D806A9A
BDAFB15F
BDA5DE18
3E40DCB5
BDC137E9
BDFC8B93
BDE8C504
BE138927
BDFA31F4
3E31062F
BDDDB822
BDB4249A
BCD50E75
BD9D7E08
BCC50E57
BE175F95
3D85A43E
3C2B1AEC
3E35D305
BE1CCC6D
BE035F6D
BDA3E47C
3E07190E
BE2A5955
BDB9D7DB
BD04076F
3E26C2E7
3E11E924
BAF401F0
3E2112DC
BD3954A5
BBF36858
3DF731EE
BDCB6B30
BDDB3E84
BB2867BE
BE3C9313
BE2182DD
BD26EE1B
BE3C1FDF
3DC857F7
3CB58E37
3D908ABB
BDE364FA
3DB14496
3C894112
BD5494DD
BC04B43A
BD806434
3DC1BE50
3B8B0110
BD41AE51
BE1255F1
BE340635
3E0A85E2
3D799525
BB9E9AE0
BCE62833
BDBF0B18
3DE5F832
3E480CC3
3E02129E
BE38E63F
BE342C9C
BB1B9AD1
BDDDAB56
BD679502
BD27BAEA
BDFD8B95
3D96EAC7
3BF3CEAF
3DC41188
3DD13809
3DF12B7C
3CFE4200
BC95278F
BE3AF643
BE3C7979
BC498194
3C12E78E
BDBBB7DE
BD8C244B
BC6C4EA8
3E15E5F9
BE0995E0
3E343FCF
BE15D5F8
3D8F3DEB
BE397CA6
BCCAC195
3CADF490
BE32B965
BD8A9DE2
3D829106
3E358FD2
3E269FB4
BD4B2197
BD6861D1
BABC0178
BDF9785A
BDF691ED
3D33949A
3D04ADD7
3DD4D810
3E474CC2
3CCB27FC
BE353FD1
3DA39147
3E201C73
3D5914E4
3E2C22F2
BD5754E1
BE2F195E
3DC46B21
3E45F98C
BDC97E60
BC83276D
3D897DE0
3E0795DC
3D202140
BDF9FEC2
