BD8DA91B
3D4CDE68
BDA3B614
BD5C1E84
3D72D84D
3D94EF8F
3C2F0E2B
BDB4BC9D
BCD3480C
BD813F69
3D4757F6
BDC6398C
3D017104
3D7BFEC4
BBC44E4E
BD88A911
BCDD6E86
3DBC5645
BDC28985
BD749850
BD51780A
BD997933
3DC15FEA
BCFFFB99
3DCC6333
3DBF464B
3C72DB7F
3D30A493
BDB16C96
BD445E56
3D2CAAF4
BD91FF8A
